unsigned char model_tflite[] = {
  0x1c, 0x00, 0x00, 0x00, 0x54, 0x46, 0x4c, 0x33, 0x14, 0x00, 0x20, 0x00,
  0x1c, 0x00, 0x18, 0x00, 0x14, 0x00, 0x10, 0x00, 0x0c, 0x00, 0x00, 0x00,
  0x08, 0x00, 0x04, 0x00, 0x14, 0x00, 0x00, 0x00, 0x1c, 0x00, 0x00, 0x00,
  0x84, 0x00, 0x00, 0x00, 0xdc, 0x00, 0x00, 0x00, 0x44, 0x05, 0x00, 0x00,
  0x54, 0x05, 0x00, 0x00, 0x88, 0x09, 0x00, 0x00, 0x03, 0x00, 0x00, 0x00,
  0x01, 0x00, 0x00, 0x00, 0x04, 0x00, 0x00, 0x00, 0x72, 0xfa, 0xff, 0xff,
  0x0c, 0x00, 0x00, 0x00, 0x1c, 0x00, 0x00, 0x00, 0x38, 0x00, 0x00, 0x00,
  0x0f, 0x00, 0x00, 0x00, 0x73, 0x65, 0x72, 0x76, 0x69, 0x6e, 0x67, 0x5f,
  0x64, 0x65, 0x66, 0x61, 0x75, 0x6c, 0x74, 0x00, 0x01, 0x00, 0x00, 0x00,
  0x04, 0x00, 0x00, 0x00, 0x98, 0xff, 0xff, 0xff, 0x07, 0x00, 0x00, 0x00,
  0x04, 0x00, 0x00, 0x00, 0x07, 0x00, 0x00, 0x00, 0x64, 0x65, 0x6e, 0x73,
  0x65, 0x5f, 0x31, 0x00, 0x01, 0x00, 0x00, 0x00, 0x04, 0x00, 0x00, 0x00,
  0x3e, 0xfb, 0xff, 0xff, 0x04, 0x00, 0x00, 0x00, 0x0b, 0x00, 0x00, 0x00,
  0x64, 0x65, 0x6e, 0x73, 0x65, 0x5f, 0x69, 0x6e, 0x70, 0x75, 0x74, 0x00,
  0x02, 0x00, 0x00, 0x00, 0x34, 0x00, 0x00, 0x00, 0x04, 0x00, 0x00, 0x00,
  0xdc, 0xff, 0xff, 0xff, 0x0a, 0x00, 0x00, 0x00, 0x04, 0x00, 0x00, 0x00,
  0x13, 0x00, 0x00, 0x00, 0x43, 0x4f, 0x4e, 0x56, 0x45, 0x52, 0x53, 0x49,
  0x4f, 0x4e, 0x5f, 0x4d, 0x45, 0x54, 0x41, 0x44, 0x41, 0x54, 0x41, 0x00,
  0x08, 0x00, 0x0c, 0x00, 0x08, 0x00, 0x04, 0x00, 0x08, 0x00, 0x00, 0x00,
  0x09, 0x00, 0x00, 0x00, 0x04, 0x00, 0x00, 0x00, 0x13, 0x00, 0x00, 0x00,
  0x6d, 0x69, 0x6e, 0x5f, 0x72, 0x75, 0x6e, 0x74, 0x69, 0x6d, 0x65, 0x5f,
  0x76, 0x65, 0x72, 0x73, 0x69, 0x6f, 0x6e, 0x00, 0x0b, 0x00, 0x00, 0x00,
  0x64, 0x04, 0x00, 0x00, 0x5c, 0x04, 0x00, 0x00, 0x48, 0x04, 0x00, 0x00,
  0x08, 0x04, 0x00, 0x00, 0xd8, 0x00, 0x00, 0x00, 0xa0, 0x00, 0x00, 0x00,
  0x98, 0x00, 0x00, 0x00, 0x90, 0x00, 0x00, 0x00, 0x88, 0x00, 0x00, 0x00,
  0x68, 0x00, 0x00, 0x00, 0x04, 0x00, 0x00, 0x00, 0xe2, 0xfb, 0xff, 0xff,
  0x04, 0x00, 0x00, 0x00, 0x54, 0x00, 0x00, 0x00, 0x0c, 0x00, 0x00, 0x00,
  0x08, 0x00, 0x0e, 0x00, 0x08, 0x00, 0x04, 0x00, 0x08, 0x00, 0x00, 0x00,
  0x10, 0x00, 0x00, 0x00, 0x24, 0x00, 0x00, 0x00, 0x00, 0x00, 0x06, 0x00,
  0x08, 0x00, 0x04, 0x00, 0x06, 0x00, 0x00, 0x00, 0x04, 0x00, 0x00, 0x00,
  0x00, 0x00, 0x00, 0x00, 0x00, 0x00, 0x0a, 0x00, 0x10, 0x00, 0x0c, 0x00,
  0x08, 0x00, 0x04, 0x00, 0x0a, 0x00, 0x00, 0x00, 0x02, 0x00, 0x00, 0x00,
  0x02, 0x00, 0x00, 0x00, 0x04, 0x00, 0x00, 0x00, 0x06, 0x00, 0x00, 0x00,
  0x32, 0x2e, 0x31, 0x32, 0x2e, 0x30, 0x00, 0x00, 0x42, 0xfc, 0xff, 0xff,
  0x04, 0x00, 0x00, 0x00, 0x10, 0x00, 0x00, 0x00, 0x31, 0x2e, 0x31, 0x34,
  0x2e, 0x30, 0x00, 0x00, 0x00, 0x00, 0x00, 0x00, 0x00, 0x00, 0x00, 0x00,
  0x2c, 0xf8, 0xff, 0xff, 0x30, 0xf8, 0xff, 0xff, 0x34, 0xf8, 0xff, 0xff,
  0x6a, 0xfc, 0xff, 0xff, 0x04, 0x00, 0x00, 0x00, 0x28, 0x00, 0x00, 0x00,
  0x83, 0xb2, 0x02, 0x3f, 0x15, 0x88, 0x90, 0x3d, 0x34, 0xbb, 0x4b, 0x3e,
  0x95, 0xa0, 0x77, 0xbe, 0x32, 0xe8, 0x9a, 0xbe, 0x70, 0x84, 0x04, 0x3e,
  0xe1, 0x82, 0x47, 0xbf, 0xa0, 0xc9, 0x16, 0xbf, 0xb6, 0xfb, 0x45, 0xbe,
  0xc3, 0x74, 0x83, 0xbe, 0x9e, 0xfc, 0xff, 0xff, 0x04, 0x00, 0x00, 0x00,
  0x20, 0x03, 0x00, 0x00, 0x40, 0xe3, 0x74, 0x3e, 0x08, 0x2a, 0xee, 0xbd,
  0xfb, 0x22, 0xd0, 0x3e, 0x14, 0xd4, 0x1a, 0x3e, 0x8d, 0x4e, 0xb8, 0x3e,
  0xf9, 0x65, 0xe2, 0x3e, 0x93, 0xe2, 0x77, 0x3e, 0xd3, 0xdd, 0x8e, 0xbe,
  0xd7, 0x4b, 0xa9, 0xbe, 0xdc, 0x55, 0x15, 0xbe, 0xaa, 0x31, 0x2e, 0xbe,
  0x7a, 0x54, 0x85, 0xbe, 0x8f, 0xe2, 0xed, 0xbd, 0x86, 0xd1, 0x87, 0xbe,
  0x9a, 0x94, 0xfe, 0xbd, 0x8d, 0x9c, 0xb3, 0x3e, 0x9e, 0xab, 0x88, 0x3e,
  0x45, 0x41, 0x38, 0xbe, 0x62, 0x87, 0x7c, 0xbe, 0x2f, 0x3d, 0x70, 0x3e,
  0x8a, 0x77, 0x84, 0xbe, 0x97, 0x36, 0x03, 0x3d, 0x2b, 0xc2, 0x95, 0xbe,
  0x85, 0xd6, 0x9c, 0xbe, 0x32, 0xfd, 0x4e, 0x3e, 0xef, 0xa7, 0x9f, 0x3e,
  0x0d, 0x36, 0xb7, 0x3e, 0x4e, 0xb4, 0xc5, 0x3e, 0xb8, 0xc9, 0x31, 0x3e,
  0x8d, 0x62, 0xbf, 0xbe, 0xb9, 0x9e, 0xbe, 0x3e, 0x9a, 0x19, 0xb9, 0x3e,
  0xd5, 0x73, 0xd4, 0xbb, 0xa3, 0xb4, 0x5c, 0x3d, 0x5e, 0x19, 0xb5, 0xbe,
  0x94, 0xbf, 0x26, 0xbe, 0x2f, 0xcc, 0xe7, 0xbe, 0xe0, 0x85, 0xc7, 0xbd,
  0xa4, 0xcc, 0x8a, 0xbe, 0x22, 0x3c, 0x7c, 0xbe, 0x7d, 0x96, 0x5c, 0xbd,
  0x55, 0x07, 0xfc, 0x3d, 0x1e, 0x6d, 0x8d, 0x3e, 0xd4, 0xde, 0x0c, 0xbe,
  0xeb, 0xa1, 0x61, 0x3d, 0x99, 0xc5, 0x3e, 0xbe, 0x7b, 0x5b, 0xdf, 0xbe,
  0xdb, 0x4c, 0x5d, 0x3e, 0x12, 0x5c, 0x80, 0x3d, 0x9e, 0x46, 0x86, 0xbe,
  0x95, 0xfd, 0xb3, 0xbd, 0x1c, 0x2f, 0x38, 0xbd, 0xd0, 0xf7, 0x70, 0xbe,
  0x98, 0xc7, 0x5a, 0x3e, 0x5d, 0x28, 0xae, 0xbe, 0x41, 0xf3, 0x6d, 0x3e,
  0x4e, 0x1a, 0x6e, 0xbe, 0xf4, 0x83, 0xe2, 0x3d, 0xdd, 0x21, 0x59, 0x3e,
  0xfe, 0x75, 0xfa, 0x3e, 0x7d, 0x75, 0x30, 0x3a, 0x2a, 0x24, 0xef, 0xbe,
  0xd4, 0x6d, 0x0b, 0x3c, 0x9e, 0xaf, 0x20, 0x3e, 0x4c, 0x33, 0xe7, 0xbe,
  0x8b, 0x6f, 0x92, 0xba, 0x16, 0xab, 0xa1, 0xbe, 0xd8, 0x9a, 0x6f, 0x3d,
  0x9a, 0x43, 0x4a, 0x3e, 0xcc, 0xd1, 0x80, 0x3e, 0x32, 0xc0, 0x0d, 0x3e,
  0x9a, 0x5a, 0xbb, 0x3d, 0xc5, 0xfa, 0x54, 0x3e, 0xda, 0x1e, 0xbe, 0x3e,
  0xd1, 0xc0, 0x5e, 0xbe, 0x61, 0xe2, 0xec, 0xbe, 0xe7, 0x9d, 0x8b, 0x3d,
  0x40, 0xff, 0x40, 0x3e, 0x06, 0xd0, 0x57, 0x3d, 0xe6, 0xa9, 0x3a, 0xbe,
  0x6c, 0xaa, 0xb2, 0x3d, 0xf5, 0x77, 0xff, 0x3d, 0xbd, 0x77, 0x19, 0x3e,
  0x22, 0x11, 0xfb, 0xbd, 0xb4, 0xeb, 0xae, 0x3e, 0x69, 0x76, 0xbe, 0x3e,
  0xb5, 0xc8, 0x7e, 0xbe, 0x8d, 0x8d, 0xc3, 0xbe, 0x12, 0x95, 0xfa, 0x3d,
  0xa3, 0x71, 0xa4, 0x3e, 0x45, 0x31, 0xb0, 0x3e, 0x0e, 0xad, 0x2b, 0xbe,
  0x46, 0xf3, 0x2d, 0x39, 0xcb, 0x82, 0x62, 0x3e, 0x31, 0xc2, 0x84, 0xbe,
  0xf2, 0x92, 0xdb, 0x3d, 0x84, 0x76, 0x5b, 0x3e, 0xf7, 0xed, 0xcf, 0x3c,
  0x69, 0x06, 0x8a, 0x3d, 0x6b, 0x4b, 0x26, 0xbe, 0x09, 0x45, 0xcf, 0x3d,
  0x27, 0xac, 0x80, 0x3c, 0x08, 0xc4, 0xc5, 0x3e, 0xfe, 0x87, 0xe4, 0xbd,
  0xec, 0xd1, 0xf6, 0xbd, 0x17, 0x7f, 0x3e, 0xbe, 0x0f, 0xc6, 0x20, 0x3d,
  0xc6, 0xc4, 0x29, 0x3d, 0x94, 0x12, 0xd2, 0x3e, 0x42, 0xe4, 0xbb, 0x3c,
  0x35, 0xd5, 0x43, 0x3e, 0x27, 0x7b, 0x5f, 0x3d, 0x8b, 0xbd, 0x88, 0x3c,
  0x72, 0xff, 0xa6, 0xbe, 0x79, 0xdf, 0xeb, 0x3e, 0x8d, 0x14, 0x21, 0xbe,
  0xda, 0xe5, 0xc6, 0xbd, 0x3a, 0x6d, 0x49, 0xbe, 0x17, 0xfa, 0xa5, 0xbd,
  0x9b, 0x9f, 0xc9, 0x3e, 0x50, 0x56, 0x08, 0x3e, 0x55, 0x4e, 0xaf, 0xbc,
  0x59, 0x73, 0xca, 0xbe, 0xf5, 0xf3, 0x1a, 0x3d, 0x2f, 0xec, 0x82, 0x3e,
  0x01, 0x03, 0xa3, 0xbe, 0x03, 0x7c, 0x87, 0xbd, 0x3e, 0x70, 0xbe, 0x3e,
  0xca, 0x3a, 0xbf, 0x3d, 0xf5, 0x68, 0xeb, 0x3e, 0x6d, 0x3c, 0x38, 0xbe,
  0x0a, 0xe6, 0xe0, 0xbc, 0x6a, 0x0d, 0xe1, 0x3d, 0x0b, 0x6b, 0x03, 0xbe,
  0xfa, 0x75, 0x28, 0x3e, 0x62, 0xd2, 0xbf, 0xbe, 0xce, 0x73, 0xb3, 0xbe,
  0xbc, 0x63, 0xe2, 0xbd, 0x5b, 0x08, 0x62, 0xbe, 0x30, 0x73, 0xb6, 0x3e,
  0xc2, 0x91, 0xa2, 0x3d, 0xb6, 0xf8, 0x3d, 0xbe, 0x0a, 0xbf, 0x9a, 0x3d,
  0xb4, 0x0a, 0xb5, 0xbd, 0x57, 0xc0, 0x09, 0x3e, 0x83, 0xc6, 0xd7, 0x3a,
  0x12, 0x2a, 0x92, 0xbd, 0xdd, 0x07, 0x47, 0xbe, 0xf7, 0x9a, 0x79, 0xbe,
  0xea, 0x71, 0xb6, 0xbe, 0xbf, 0xe8, 0xad, 0x3e, 0xba, 0x72, 0x8f, 0x3e,
  0xf1, 0x4b, 0x19, 0x3e, 0xce, 0x6a, 0x8d, 0xbe, 0xfc, 0xd3, 0x2b, 0x3d,
  0xa4, 0xd2, 0x47, 0x3e, 0xb2, 0x71, 0xa3, 0xbe, 0xc7, 0xcd, 0x9f, 0xbc,
  0x36, 0x3a, 0x5c, 0x3e, 0xea, 0xa3, 0xaf, 0xbe, 0x72, 0xd0, 0xcc, 0xbe,
  0x4e, 0x6d, 0xb1, 0xbe, 0xbe, 0x6a, 0xa7, 0x3e, 0xb7, 0x59, 0x86, 0xbe,
  0xdf, 0x15, 0x83, 0x3e, 0x19, 0x46, 0xba, 0x3e, 0x8b, 0x38, 0x80, 0x3e,
  0x33, 0xcc, 0xdf, 0x3d, 0x35, 0x23, 0xea, 0x3e, 0x7d, 0x8a, 0xab, 0x3a,
  0x48, 0x09, 0x83, 0xbe, 0xe3, 0xaa, 0xba, 0xbe, 0x81, 0xd1, 0x2c, 0xbe,
  0x92, 0xd3, 0xe4, 0x3e, 0xa7, 0x95, 0xd6, 0xbe, 0xc2, 0x99, 0x3c, 0x3e,
  0x77, 0x50, 0x98, 0x3d, 0x67, 0xca, 0x29, 0x3e, 0x72, 0x18, 0x90, 0xbe,
  0x72, 0x9b, 0xcf, 0xbe, 0xac, 0x03, 0x87, 0x3d, 0x2c, 0x31, 0xb2, 0x3e,
  0xd0, 0x0d, 0x36, 0xbe, 0x27, 0xf9, 0x95, 0xbd, 0x93, 0xcb, 0x73, 0x3e,
  0xd4, 0x75, 0xcc, 0x3d, 0xd2, 0x10, 0x8a, 0x3e, 0x00, 0xf0, 0xef, 0xbe,
  0x8d, 0xc2, 0x85, 0xbe, 0x6c, 0xeb, 0x91, 0xbe, 0x09, 0xc2, 0x30, 0xbe,
  0xf2, 0x03, 0xdf, 0xbe, 0x8b, 0x9f, 0x49, 0x3d, 0xc2, 0x29, 0x93, 0xbe,
  0xf6, 0x16, 0x36, 0xbe, 0x7b, 0x41, 0xaa, 0x3e, 0x20, 0x76, 0x02, 0x3e,
  0x0d, 0xfb, 0xee, 0xbb, 0x43, 0x39, 0x97, 0x3e, 0xab, 0x5e, 0xd9, 0xbc,
  0xca, 0xff, 0xff, 0xff, 0x04, 0x00, 0x00, 0x00, 0x28, 0x00, 0x00, 0x00,
  0xff, 0xcd, 0x33, 0x3d, 0xd1, 0x2b, 0xfc, 0xbc, 0xe6, 0x36, 0x1e, 0x3d,
  0x0e, 0x44, 0xb4, 0xbc, 0x14, 0xa7, 0x29, 0xbd, 0x57, 0xa6, 0x20, 0x3d,
  0x0d, 0x44, 0x55, 0x3d, 0xa2, 0x33, 0xaf, 0xbc, 0x6e, 0x87, 0x46, 0x3d,
  0x54, 0x2f, 0x8b, 0xbd, 0x00, 0x00, 0x06, 0x00, 0x08, 0x00, 0x04, 0x00,
  0x06, 0x00, 0x00, 0x00, 0x04, 0x00, 0x00, 0x00, 0x04, 0x00, 0x00, 0x00,
  0xcc, 0x77, 0x29, 0x3d, 0xe4, 0xfb, 0xff, 0xff, 0xe8, 0xfb, 0xff, 0xff,
  0x0f, 0x00, 0x00, 0x00, 0x4d, 0x4c, 0x49, 0x52, 0x20, 0x43, 0x6f, 0x6e,
  0x76, 0x65, 0x72, 0x74, 0x65, 0x64, 0x2e, 0x00, 0x01, 0x00, 0x00, 0x00,
  0x14, 0x00, 0x00, 0x00, 0x00, 0x00, 0x0e, 0x00, 0x18, 0x00, 0x14, 0x00,
  0x10, 0x00, 0x0c, 0x00, 0x08, 0x00, 0x04, 0x00, 0x0e, 0x00, 0x00, 0x00,
  0x14, 0x00, 0x00, 0x00, 0x1c, 0x00, 0x00, 0x00, 0xd0, 0x00, 0x00, 0x00,
  0xd4, 0x00, 0x00, 0x00, 0xd8, 0x00, 0x00, 0x00, 0x04, 0x00, 0x00, 0x00,
  0x6d, 0x61, 0x69, 0x6e, 0x00, 0x00, 0x00, 0x00, 0x03, 0x00, 0x00, 0x00,
  0x78, 0x00, 0x00, 0x00, 0x34, 0x00, 0x00, 0x00, 0x10, 0x00, 0x00, 0x00,
  0x00, 0x00, 0x0a, 0x00, 0x10, 0x00, 0x0c, 0x00, 0x08, 0x00, 0x04, 0x00,
  0x0a, 0x00, 0x00, 0x00, 0x0c, 0x00, 0x00, 0x00, 0x10, 0x00, 0x00, 0x00,
  0x01, 0x00, 0x00, 0x00, 0x01, 0x00, 0x00, 0x00, 0x07, 0x00, 0x00, 0x00,
  0x01, 0x00, 0x00, 0x00, 0x06, 0x00, 0x00, 0x00, 0xce, 0xff, 0xff, 0xff,
  0x10, 0x00, 0x00, 0x00, 0x00, 0x00, 0x00, 0x08, 0x0c, 0x00, 0x00, 0x00,
  0x10, 0x00, 0x00, 0x00, 0x8c, 0xfc, 0xff, 0xff, 0x01, 0x00, 0x00, 0x00,
  0x06, 0x00, 0x00, 0x00, 0x03, 0x00, 0x00, 0x00, 0x05, 0x00, 0x00, 0x00,
  0x04, 0x00, 0x00, 0x00, 0x01, 0x00, 0x00, 0x00, 0x00, 0x00, 0x0e, 0x00,
  0x16, 0x00, 0x00, 0x00, 0x10, 0x00, 0x0c, 0x00, 0x0b, 0x00, 0x04, 0x00,
  0x0e, 0x00, 0x00, 0x00, 0x18, 0x00, 0x00, 0x00, 0x00, 0x00, 0x00, 0x08,
  0x18, 0x00, 0x00, 0x00, 0x1c, 0x00, 0x00, 0x00, 0x00, 0x00, 0x06, 0x00,
  0x08, 0x00, 0x07, 0x00, 0x06, 0x00, 0x00, 0x00, 0x00, 0x00, 0x00, 0x01,
  0x01, 0x00, 0x00, 0x00, 0x05, 0x00, 0x00, 0x00, 0x03, 0x00, 0x00, 0x00,
  0x00, 0x00, 0x00, 0x00, 0x03, 0x00, 0x00, 0x00, 0x02, 0x00, 0x00, 0x00,
  0x01, 0x00, 0x00, 0x00, 0x07, 0x00, 0x00, 0x00, 0x01, 0x00, 0x00, 0x00,
  0x00, 0x00, 0x00, 0x00, 0x08, 0x00, 0x00, 0x00, 0xd0, 0x02, 0x00, 0x00,
  0x60, 0x02, 0x00, 0x00, 0xf4, 0x01, 0x00, 0x00, 0xac, 0x01, 0x00, 0x00,
  0x60, 0x01, 0x00, 0x00, 0xd8, 0x00, 0x00, 0x00, 0x60, 0x00, 0x00, 0x00,
  0x04, 0x00, 0x00, 0x00, 0x66, 0xfd, 0xff, 0xff, 0x00, 0x00, 0x00, 0x01,
  0x14, 0x00, 0x00, 0x00, 0x1c, 0x00, 0x00, 0x00, 0x1c, 0x00, 0x00, 0x00,
  0x08, 0x00, 0x00, 0x00, 0x34, 0x00, 0x00, 0x00, 0x02, 0x00, 0x00, 0x00,
  0xff, 0xff, 0xff, 0xff, 0x01, 0x00, 0x00, 0x00, 0x50, 0xfd, 0xff, 0xff,
  0x19, 0x00, 0x00, 0x00, 0x53, 0x74, 0x61, 0x74, 0x65, 0x66, 0x75, 0x6c,
  0x50, 0x61, 0x72, 0x74, 0x69, 0x74, 0x69, 0x6f, 0x6e, 0x65, 0x64, 0x43,
  0x61, 0x6c, 0x6c, 0x3a, 0x30, 0x00, 0x00, 0x00, 0x02, 0x00, 0x00, 0x00,
  0x01, 0x00, 0x00, 0x00, 0x01, 0x00, 0x00, 0x00, 0xbe, 0xfd, 0xff, 0xff,
  0x00, 0x00, 0x00, 0x01, 0x14, 0x00, 0x00, 0x00, 0x1c, 0x00, 0x00, 0x00,
  0x1c, 0x00, 0x00, 0x00, 0x07, 0x00, 0x00, 0x00, 0x50, 0x00, 0x00, 0x00,
  0x02, 0x00, 0x00, 0x00, 0xff, 0xff, 0xff, 0xff, 0x01, 0x00, 0x00, 0x00,
  0xa8, 0xfd, 0xff, 0xff, 0x34, 0x00, 0x00, 0x00, 0x73, 0x65, 0x71, 0x75,
  0x65, 0x6e, 0x74, 0x69, 0x61, 0x6c, 0x2f, 0x64, 0x65, 0x6e, 0x73, 0x65,
  0x5f, 0x31, 0x2f, 0x4d, 0x61, 0x74, 0x4d, 0x75, 0x6c, 0x3b, 0x73, 0x65,
  0x71, 0x75, 0x65, 0x6e, 0x74, 0x69, 0x61, 0x6c, 0x2f, 0x64, 0x65, 0x6e,
  0x73, 0x65, 0x5f, 0x31, 0x2f, 0x42, 0x69, 0x61, 0x73, 0x41, 0x64, 0x64,
  0x00, 0x00, 0x00, 0x00, 0x02, 0x00, 0x00, 0x00, 0x01, 0x00, 0x00, 0x00,
  0x01, 0x00, 0x00, 0x00, 0x32, 0xfe, 0xff, 0xff, 0x00, 0x00, 0x00, 0x01,
  0x14, 0x00, 0x00, 0x00, 0x1c, 0x00, 0x00, 0x00, 0x1c, 0x00, 0x00, 0x00,
  0x06, 0x00, 0x00, 0x00, 0x60, 0x00, 0x00, 0x00, 0x02, 0x00, 0x00, 0x00,
  0xff, 0xff, 0xff, 0xff, 0x0a, 0x00, 0x00, 0x00, 0x1c, 0xfe, 0xff, 0xff,
  0x46, 0x00, 0x00, 0x00, 0x73, 0x65, 0x71, 0x75, 0x65, 0x6e, 0x74, 0x69,
  0x61, 0x6c, 0x2f, 0x64, 0x65, 0x6e, 0x73, 0x65, 0x2f, 0x4d, 0x61, 0x74,
  0x4d, 0x75, 0x6c, 0x3b, 0x73, 0x65, 0x71, 0x75, 0x65, 0x6e, 0x74, 0x69,
  0x61, 0x6c, 0x2f, 0x64, 0x65, 0x6e, 0x73, 0x65, 0x2f, 0x52, 0x65, 0x6c,
  0x75, 0x3b, 0x73, 0x65, 0x71, 0x75, 0x65, 0x6e, 0x74, 0x69, 0x61, 0x6c,
  0x2f, 0x64, 0x65, 0x6e, 0x73, 0x65, 0x2f, 0x42, 0x69, 0x61, 0x73, 0x41,
  0x64, 0x64, 0x00, 0x00, 0x02, 0x00, 0x00, 0x00, 0x01, 0x00, 0x00, 0x00,
  0x0a, 0x00, 0x00, 0x00, 0x22, 0xff, 0xff, 0xff, 0x00, 0x00, 0x00, 0x01,
  0x10, 0x00, 0x00, 0x00, 0x10, 0x00, 0x00, 0x00, 0x05, 0x00, 0x00, 0x00,
  0x28, 0x00, 0x00, 0x00, 0x90, 0xfe, 0xff, 0xff, 0x19, 0x00, 0x00, 0x00,
  0x73, 0x65, 0x71, 0x75, 0x65, 0x6e, 0x74, 0x69, 0x61, 0x6c, 0x2f, 0x64,
  0x65, 0x6e, 0x73, 0x65, 0x5f, 0x31, 0x2f, 0x4d, 0x61, 0x74, 0x4d, 0x75,
  0x6c, 0x00, 0x00, 0x00, 0x02, 0x00, 0x00, 0x00, 0x01, 0x00, 0x00, 0x00,
  0x0a, 0x00, 0x00, 0x00, 0x6a, 0xff, 0xff, 0xff, 0x00, 0x00, 0x00, 0x01,
  0x10, 0x00, 0x00, 0x00, 0x10, 0x00, 0x00, 0x00, 0x04, 0x00, 0x00, 0x00,
  0x24, 0x00, 0x00, 0x00, 0xd8, 0xfe, 0xff, 0xff, 0x17, 0x00, 0x00, 0x00,
  0x73, 0x65, 0x71, 0x75, 0x65, 0x6e, 0x74, 0x69, 0x61, 0x6c, 0x2f, 0x64,
  0x65, 0x6e, 0x73, 0x65, 0x2f, 0x4d, 0x61, 0x74, 0x4d, 0x75, 0x6c, 0x00,
  0x02, 0x00, 0x00, 0x00, 0x0a, 0x00, 0x00, 0x00, 0x14, 0x00, 0x00, 0x00,
  0xae, 0xff, 0xff, 0xff, 0x00, 0x00, 0x00, 0x01, 0x10, 0x00, 0x00, 0x00,
  0x10, 0x00, 0x00, 0x00, 0x03, 0x00, 0x00, 0x00, 0x34, 0x00, 0x00, 0x00,
  0x1c, 0xff, 0xff, 0xff, 0x27, 0x00, 0x00, 0x00, 0x73, 0x65, 0x71, 0x75,
  0x65, 0x6e, 0x74, 0x69, 0x61, 0x6c, 0x2f, 0x64, 0x65, 0x6e, 0x73, 0x65,
  0x2f, 0x42, 0x69, 0x61, 0x73, 0x41, 0x64, 0x64, 0x2f, 0x52, 0x65, 0x61,
  0x64, 0x56, 0x61, 0x72, 0x69, 0x61, 0x62, 0x6c, 0x65, 0x4f, 0x70, 0x00,
  0x01, 0x00, 0x00, 0x00, 0x0a, 0x00, 0x00, 0x00, 0x00, 0x00, 0x16, 0x00,
  0x18, 0x00, 0x14, 0x00, 0x00, 0x00, 0x10, 0x00, 0x0c, 0x00, 0x08, 0x00,
  0x00, 0x00, 0x00, 0x00, 0x00, 0x00, 0x07, 0x00, 0x16, 0x00, 0x00, 0x00,
  0x00, 0x00, 0x00, 0x01, 0x10, 0x00, 0x00, 0x00, 0x10, 0x00, 0x00, 0x00,
  0x02, 0x00, 0x00, 0x00, 0x38, 0x00, 0x00, 0x00, 0x84, 0xff, 0xff, 0xff,
  0x29, 0x00, 0x00, 0x00, 0x73, 0x65, 0x71, 0x75, 0x65, 0x6e, 0x74, 0x69,
  0x61, 0x6c, 0x2f, 0x64, 0x65, 0x6e, 0x73, 0x65, 0x5f, 0x31, 0x2f, 0x42,
  0x69, 0x61, 0x73, 0x41, 0x64, 0x64, 0x2f, 0x52, 0x65, 0x61, 0x64, 0x56,
  0x61, 0x72, 0x69, 0x61, 0x62, 0x6c, 0x65, 0x4f, 0x70, 0x00, 0x00, 0x00,
  0x01, 0x00, 0x00, 0x00, 0x01, 0x00, 0x00, 0x00, 0x00, 0x00, 0x16, 0x00,
  0x1c, 0x00, 0x18, 0x00, 0x00, 0x00, 0x14, 0x00, 0x10, 0x00, 0x0c, 0x00,
  0x00, 0x00, 0x00, 0x00, 0x08, 0x00, 0x07, 0x00, 0x16, 0x00, 0x00, 0x00,
  0x00, 0x00, 0x00, 0x01, 0x14, 0x00, 0x00, 0x00, 0x20, 0x00, 0x00, 0x00,
  0x20, 0x00, 0x00, 0x00, 0x01, 0x00, 0x00, 0x00, 0x3c, 0x00, 0x00, 0x00,
  0x02, 0x00, 0x00, 0x00, 0xff, 0xff, 0xff, 0xff, 0x14, 0x00, 0x00, 0x00,
  0x04, 0x00, 0x04, 0x00, 0x04, 0x00, 0x00, 0x00, 0x1d, 0x00, 0x00, 0x00,
  0x73, 0x65, 0x72, 0x76, 0x69, 0x6e, 0x67, 0x5f, 0x64, 0x65, 0x66, 0x61,
  0x75, 0x6c, 0x74, 0x5f, 0x64, 0x65, 0x6e, 0x73, 0x65, 0x5f, 0x69, 0x6e,
  0x70, 0x75, 0x74, 0x3a, 0x30, 0x00, 0x00, 0x00, 0x02, 0x00, 0x00, 0x00,
  0x01, 0x00, 0x00, 0x00, 0x14, 0x00, 0x00, 0x00, 0x02, 0x00, 0x00, 0x00,
  0x20, 0x00, 0x00, 0x00, 0x04, 0x00, 0x00, 0x00, 0xf4, 0xff, 0xff, 0xff,
  0x0e, 0x00, 0x00, 0x00, 0x00, 0x00, 0x00, 0x0e, 0x0c, 0x00, 0x0c, 0x00,
  0x0b, 0x00, 0x00, 0x00, 0x00, 0x00, 0x04, 0x00, 0x0c, 0x00, 0x00, 0x00,
  0x09, 0x00, 0x00, 0x00, 0x00, 0x00, 0x00, 0x09
};
unsigned int model_tflite_len = 2540;
